unsigned char bre_led_model_tflite[] = {
  0x1c, 0x00, 0x00, 0x00, 0x54, 0x46, 0x4c, 0x33, 0x00, 0x00, 0x12, 0x00,
  0x1c, 0x00, 0x04, 0x00, 0x08, 0x00, 0x0c, 0x00, 0x10, 0x00, 0x14, 0x00,
  0x00, 0x00, 0x18, 0x00, 0x12, 0x00, 0x00, 0x00, 0x03, 0x00, 0x00, 0x00,
  0x3c, 0x0a, 0x00, 0x00, 0x10, 0x00, 0x00, 0x00, 0x1c, 0x00, 0x00, 0x00,
  0x2c, 0x00, 0x00, 0x00, 0x0c, 0x00, 0x00, 0x00, 0x01, 0x00, 0x00, 0x00,
  0xe8, 0x00, 0x00, 0x00, 0x01, 0x00, 0x00, 0x00, 0xb0, 0x00, 0x00, 0x00,
  0x0f, 0x00, 0x00, 0x00, 0x54, 0x4f, 0x43, 0x4f, 0x20, 0x43, 0x6f, 0x6e,
  0x76, 0x65, 0x72, 0x74, 0x65, 0x64, 0x2e, 0x00, 0x0c, 0x00, 0x00, 0x00,
  0x84, 0x00, 0x00, 0x00, 0x7c, 0x00, 0x00, 0x00, 0x70, 0x00, 0x00, 0x00,
  0x60, 0x00, 0x00, 0x00, 0x54, 0x00, 0x00, 0x00, 0x4c, 0x00, 0x00, 0x00,
  0x40, 0x00, 0x00, 0x00, 0x34, 0x00, 0x00, 0x00, 0x28, 0x00, 0x00, 0x00,
  0x1c, 0x00, 0x00, 0x00, 0x10, 0x00, 0x00, 0x00, 0x04, 0x00, 0x00, 0x00,
  0xbe, 0xff, 0xff, 0xff, 0x54, 0x00, 0x00, 0x00, 0xc6, 0xff, 0xff, 0xff,
  0x1c, 0x01, 0x00, 0x00, 0xce, 0xff, 0xff, 0xff, 0x78, 0x01, 0x00, 0x00,
  0xd6, 0xff, 0xff, 0xff, 0xf8, 0x01, 0x00, 0x00, 0xde, 0xff, 0xff, 0xff,
  0x78, 0x02, 0x00, 0x00, 0xe6, 0xff, 0xff, 0xff, 0x10, 0x03, 0x00, 0x00,
  0xf4, 0xf6, 0xff, 0xff, 0xf8, 0xf6, 0xff, 0xff, 0x04, 0x00, 0x06, 0x00,
  0x04, 0x00, 0x00, 0x00, 0x00, 0x00, 0x06, 0x00, 0x08, 0x00, 0x04, 0x00,
  0x06, 0x00, 0x00, 0x00, 0x44, 0x04, 0x00, 0x00, 0x14, 0xf7, 0xff, 0xff,
  0x18, 0xf7, 0xff, 0xff, 0x05, 0x00, 0x00, 0x00, 0x31, 0x2e, 0x35, 0x2e,
  0x30, 0x00, 0x00, 0x00, 0x90, 0xf7, 0xff, 0xff, 0x08, 0x00, 0x00, 0x00,
  0x0b, 0x00, 0x00, 0x00, 0x13, 0x00, 0x00, 0x00, 0x6d, 0x69, 0x6e, 0x5f,
  0x72, 0x75, 0x6e, 0x74, 0x69, 0x6d, 0x65, 0x5f, 0x76, 0x65, 0x72, 0x73,
  0x69, 0x6f, 0x6e, 0x00, 0x0c, 0x00, 0x14, 0x00, 0x04, 0x00, 0x08, 0x00,
  0x0c, 0x00, 0x10, 0x00, 0x0c, 0x00, 0x00, 0x00, 0x20, 0x00, 0x00, 0x00,
  0x14, 0x00, 0x00, 0x00, 0x08, 0x00, 0x00, 0x00, 0x54, 0x08, 0x00, 0x00,
  0x01, 0x00, 0x00, 0x00, 0x00, 0x00, 0x00, 0x00, 0x01, 0x00, 0x00, 0x00,
  0x01, 0x00, 0x00, 0x00, 0x0a, 0x00, 0x00, 0x00, 0xc4, 0x02, 0x00, 0x00,
  0xe4, 0x07, 0x00, 0x00, 0x1c, 0x02, 0x00, 0x00, 0x90, 0x01, 0x00, 0x00,
  0x28, 0x03, 0x00, 0x00, 0x64, 0x03, 0x00, 0x00, 0xfc, 0x00, 0x00, 0x00,
  0xdc, 0x02, 0x00, 0x00, 0x54, 0x00, 0x00, 0x00, 0x04, 0x00, 0x00, 0x00,
  0x4e, 0xf8, 0xff, 0xff, 0x10, 0x00, 0x00, 0x00, 0x0a, 0x00, 0x00, 0x00,
  0x10, 0x00, 0x00, 0x00, 0x30, 0x00, 0x00, 0x00, 0x01, 0x00, 0x00, 0x00,
  0x01, 0x00, 0x00, 0x00, 0x1e, 0x00, 0x00, 0x00, 0x73, 0x65, 0x71, 0x75,
  0x65, 0x6e, 0x74, 0x69, 0x61, 0x6c, 0x2f, 0x64, 0x65, 0x6e, 0x73, 0x65,
  0x5f, 0x32, 0x2f, 0x4d, 0x61, 0x74, 0x4d, 0x75, 0x6c, 0x5f, 0x62, 0x69,
  0x61, 0x73, 0x00, 0x00, 0xe8, 0xf7, 0xff, 0xff, 0x04, 0x00, 0x00, 0x00,
  0x6a, 0x75, 0xc5, 0x3e, 0x9a, 0xf8, 0xff, 0xff, 0x10, 0x00, 0x00, 0x00,
  0x09, 0x00, 0x00, 0x00, 0x14, 0x00, 0x00, 0x00, 0x48, 0x00, 0x00, 0x00,
  0x02, 0x00, 0x00, 0x00, 0x01, 0x00, 0x00, 0x00, 0x10, 0x00, 0x00, 0x00,
  0x32, 0x00, 0x00, 0x00, 0x73, 0x65, 0x71, 0x75, 0x65, 0x6e, 0x74, 0x69,
  0x61, 0x6c, 0x2f, 0x64, 0x65, 0x6e, 0x73, 0x65, 0x5f, 0x32, 0x2f, 0x4d,
  0x61, 0x74, 0x4d, 0x75, 0x6c, 0x2f, 0x52, 0x65, 0x61, 0x64, 0x56, 0x61,
  0x72, 0x69, 0x61, 0x62, 0x6c, 0x65, 0x4f, 0x70, 0x2f, 0x74, 0x72, 0x61,
  0x6e, 0x73, 0x70, 0x6f, 0x73, 0x65, 0x00, 0x00, 0x4c, 0xf8, 0xff, 0xff,
  0x40, 0x00, 0x00, 0x00, 0x21, 0xa4, 0x6d, 0x3e, 0x78, 0xea, 0xd5, 0x3e,
  0x98, 0x83, 0x9d, 0x3e, 0xd3, 0x14, 0x81, 0xbf, 0x55, 0x65, 0x0d, 0xbf,
  0xa5, 0x3d, 0x1d, 0xbf, 0xc8, 0xb9, 0xff, 0xbe, 0x48, 0xb8, 0xf3, 0xbe,
  0x46, 0xbf, 0xe4, 0xbe, 0xce, 0x48, 0x4a, 0x3e, 0x4e, 0x31, 0x43, 0xbd,
  0xfa, 0x51, 0xc1, 0xbe, 0x6d, 0xc3, 0x35, 0x3e, 0x83, 0xc3, 0x0f, 0xbf,
  0xc4, 0xa8, 0x35, 0xbe, 0xd3, 0xb1, 0x20, 0xbf, 0x3a, 0xf9, 0xff, 0xff,
  0x10, 0x00, 0x00, 0x00, 0x08, 0x00, 0x00, 0x00, 0x10, 0x00, 0x00, 0x00,
  0x30, 0x00, 0x00, 0x00, 0x01, 0x00, 0x00, 0x00, 0x10, 0x00, 0x00, 0x00,
  0x1e, 0x00, 0x00, 0x00, 0x73, 0x65, 0x71, 0x75, 0x65, 0x6e, 0x74, 0x69,
  0x61, 0x6c, 0x2f, 0x64, 0x65, 0x6e, 0x73, 0x65, 0x5f, 0x31, 0x2f, 0x4d,
  0x61, 0x74, 0x4d, 0x75, 0x6c, 0x5f, 0x62, 0x69, 0x61, 0x73, 0x00, 0x00,
  0xd4, 0xf8, 0xff, 0xff, 0x40, 0x00, 0x00, 0x00, 0x1d, 0xb0, 0x1f, 0xbc,
  0x00, 0x00, 0x00, 0x00, 0xcf, 0xeb, 0xba, 0x3e, 0x8d, 0xfb, 0x81, 0x3e,
  0x00, 0x00, 0x00, 0x00, 0xb8, 0x04, 0x81, 0xbe, 0x48, 0x18, 0x8e, 0xbd,
  0xf0, 0x0e, 0x57, 0xbe, 0x00, 0x00, 0x00, 0x00, 0x21, 0x97, 0xb3, 0x3e,
  0x12, 0x61, 0x04, 0xbe, 0xab, 0x27, 0x3d, 0xbe, 0xb6, 0x5e, 0xb6, 0x3e,
  0xfb, 0xad, 0x8e, 0x3e, 0x00, 0x00, 0x00, 0x00, 0x0b, 0x39, 0xd8, 0x3d,
  0xc2, 0xf9, 0xff, 0xff, 0x10, 0x00, 0x00, 0x00, 0x07, 0x00, 0x00, 0x00,
  0x10, 0x00, 0x00, 0x00, 0x30, 0x00, 0x00, 0x00, 0x01, 0x00, 0x00, 0x00,
  0x10, 0x00, 0x00, 0x00, 0x1c, 0x00, 0x00, 0x00, 0x73, 0x65, 0x71, 0x75,
  0x65, 0x6e, 0x74, 0x69, 0x61, 0x6c, 0x2f, 0x64, 0x65, 0x6e, 0x73, 0x65,
  0x2f, 0x4d, 0x61, 0x74, 0x4d, 0x75, 0x6c, 0x5f, 0x62, 0x69, 0x61, 0x73,
  0x00, 0x00, 0x00, 0x00, 0x5c, 0xf9, 0xff, 0xff, 0x40, 0x00, 0x00, 0x00,
  0x99, 0xd4, 0xc4, 0xbc, 0x00, 0x00, 0x00, 0x00, 0x00, 0x00, 0x00, 0x00,
  0x00, 0x00, 0x00, 0x00, 0x5b, 0x7e, 0x43, 0xbe, 0x00, 0x00, 0x00, 0x00,
  0x00, 0x00, 0x00, 0x00, 0x00, 0x00, 0x00, 0x00, 0x00, 0x00, 0x00, 0x00,
  0x49, 0xce, 0x2b, 0x3e, 0xb9, 0xe9, 0x94, 0x3e, 0x33, 0x09, 0x35, 0xbe,
  0x6f, 0x6a, 0x21, 0xbe, 0x00, 0x00, 0x00, 0x00, 0x3f, 0x77, 0x92, 0x3e,
  0x9b, 0xdc, 0x82, 0x3e, 0x4a, 0xfa, 0xff, 0xff, 0x10, 0x00, 0x00, 0x00,
  0x06, 0x00, 0x00, 0x00, 0x14, 0x00, 0x00, 0x00, 0x48, 0x00, 0x00, 0x00,
  0x02, 0x00, 0x00, 0x00, 0x10, 0x00, 0x00, 0x00, 0x01, 0x00, 0x00, 0x00,
  0x30, 0x00, 0x00, 0x00, 0x73, 0x65, 0x71, 0x75, 0x65, 0x6e, 0x74, 0x69,
  0x61, 0x6c, 0x2f, 0x64, 0x65, 0x6e, 0x73, 0x65, 0x2f, 0x4d, 0x61, 0x74,
  0x4d, 0x75, 0x6c, 0x2f, 0x52, 0x65, 0x61, 0x64, 0x56, 0x61, 0x72, 0x69,
  0x61, 0x62, 0x6c, 0x65, 0x4f, 0x70, 0x2f, 0x74, 0x72, 0x61, 0x6e, 0x73,
  0x70, 0x6f, 0x73, 0x65, 0x00, 0x00, 0x00, 0x00, 0xfc, 0xf9, 0xff, 0xff,
  0x40, 0x00, 0x00, 0x00, 0x43, 0x47, 0x04, 0x3f, 0xc6, 0x8a, 0xc4, 0xbe,
  0x1b, 0x08, 0x86, 0xbe, 0xba, 0xc7, 0x32, 0xbe, 0x47, 0x79, 0x82, 0x3e,
  0x47, 0xe1, 0x0f, 0xbf, 0xca, 0xf6, 0x22, 0xbe, 0xfa, 0x31, 0xf2, 0xbe,
  0xda, 0xfd, 0xc0, 0xbe, 0xeb, 0x83, 0x82, 0x3b, 0xd4, 0xf5, 0x8c, 0x3d,
  0xac, 0x0c, 0x11, 0x3e, 0x14, 0x32, 0xf8, 0x3d, 0xfe, 0x45, 0xf7, 0xbe,
  0x50, 0x55, 0xed, 0x3c, 0xad, 0x63, 0x25, 0x3e, 0xea, 0xfa, 0xff, 0xff,
  0x10, 0x00, 0x00, 0x00, 0x05, 0x00, 0x00, 0x00, 0x14, 0x00, 0x00, 0x00,
  0x20, 0x00, 0x00, 0x00, 0x02, 0x00, 0x00, 0x00, 0x01, 0x00, 0x00, 0x00,
  0x01, 0x00, 0x00, 0x00, 0x08, 0x00, 0x00, 0x00, 0x49, 0x64, 0x65, 0x6e,
  0x74, 0x69, 0x74, 0x79, 0x00, 0x00, 0x00, 0x00, 0x74, 0xfa, 0xff, 0xff,
  0x1e, 0xfb, 0xff, 0xff, 0x10, 0x00, 0x00, 0x00, 0x04, 0x00, 0x00, 0x00,
  0x14, 0x00, 0x00, 0x00, 0x2c, 0x00, 0x00, 0x00, 0x02, 0x00, 0x00, 0x00,
  0x01, 0x00, 0x00, 0x00, 0x10, 0x00, 0x00, 0x00, 0x17, 0x00, 0x00, 0x00,
  0x73, 0x65, 0x71, 0x75, 0x65, 0x6e, 0x74, 0x69, 0x61, 0x6c, 0x2f, 0x64,
  0x65, 0x6e, 0x73, 0x65, 0x5f, 0x31, 0x2f, 0x52, 0x65, 0x6c, 0x75, 0x00,
  0xb4, 0xfa, 0xff, 0xff, 0x5e, 0xfb, 0xff, 0xff, 0x10, 0x00, 0x00, 0x00,
  0x03, 0x00, 0x00, 0x00, 0x14, 0x00, 0x00, 0x00, 0x2c, 0x00, 0x00, 0x00,
  0x02, 0x00, 0x00, 0x00, 0x01, 0x00, 0x00, 0x00, 0x10, 0x00, 0x00, 0x00,
  0x15, 0x00, 0x00, 0x00, 0x73, 0x65, 0x71, 0x75, 0x65, 0x6e, 0x74, 0x69,
  0x61, 0x6c, 0x2f, 0x64, 0x65, 0x6e, 0x73, 0x65, 0x2f, 0x52, 0x65, 0x6c,
  0x75, 0x00, 0x00, 0x00, 0xf4, 0xfa, 0xff, 0xff, 0x9e, 0xfb, 0xff, 0xff,
  0x10, 0x00, 0x00, 0x00, 0x02, 0x00, 0x00, 0x00, 0x14, 0x00, 0x00, 0x00,
  0x48, 0x00, 0x00, 0x00, 0x02, 0x00, 0x00, 0x00, 0x10, 0x00, 0x00, 0x00,
  0x10, 0x00, 0x00, 0x00, 0x32, 0x00, 0x00, 0x00, 0x73, 0x65, 0x71, 0x75,
  0x65, 0x6e, 0x74, 0x69, 0x61, 0x6c, 0x2f, 0x64, 0x65, 0x6e, 0x73, 0x65,
  0x5f, 0x31, 0x2f, 0x4d, 0x61, 0x74, 0x4d, 0x75, 0x6c, 0x2f, 0x52, 0x65,
  0x61, 0x64, 0x56, 0x61, 0x72, 0x69, 0x61, 0x62, 0x6c, 0x65, 0x4f, 0x70,
  0x2f, 0x74, 0x72, 0x61, 0x6e, 0x73, 0x70, 0x6f, 0x73, 0x65, 0x00, 0x00,
  0x50, 0xfb, 0xff, 0xff, 0x00, 0x04, 0x00, 0x00, 0xfe, 0x50, 0xd4, 0x3d,
  0x52, 0x57, 0x5f, 0x3e, 0x6a, 0x4a, 0x27, 0xbe, 0xf6, 0xba, 0x26, 0x3e,
  0x50, 0xb6, 0x39, 0xbe, 0xba, 0x61, 0x03, 0x3e, 0x4c, 0x98, 0x59, 0xbe,
  0x91, 0xce, 0xa2, 0x3e, 0x84, 0xc3, 0x94, 0x3d, 0x69, 0xa7, 0x5c, 0x3e,
  0x8b, 0xe9, 0x9b, 0x3e, 0xdc, 0x11, 0xc4, 0xbd, 0xee, 0x15, 0x22, 0x3e,
  0x80, 0xc4, 0xdb, 0xbb, 0xb8, 0x0d, 0x4f, 0xbe, 0x40, 0x86, 0x91, 0xbe,
  0x74, 0x78, 0xa2, 0xbe, 0x11, 0x0f, 0x80, 0xbe, 0x0c, 0xfd, 0xa2, 0xbe,
  0xfc, 0x36, 0xb9, 0xbe, 0xba, 0xc0, 0x66, 0xbe, 0x5b, 0x68, 0xd7, 0xbe,
  0x80, 0x56, 0x21, 0x3c, 0x17, 0x8e, 0x8d, 0x3e, 0xc0, 0xc8, 0xba, 0x3c,
  0x80, 0xf0, 0xa8, 0xbd, 0x40, 0x9d, 0xec, 0xbb, 0xc5, 0xdb, 0xc5, 0xbe,
  0xf9, 0x79, 0xd9, 0xbe, 0x12, 0xd2, 0x97, 0xbe, 0xb9, 0xa7, 0x3f, 0xbe,
  0x04, 0x81, 0xc0, 0x3d, 0x8c, 0xa0, 0xf6, 0x3d, 0x6f, 0x2a, 0x87, 0x3e,
  0x76, 0xe8, 0x70, 0x3e, 0x30, 0x18, 0x69, 0xbd, 0x0f, 0x9c, 0x10, 0xbd,
  0x1e, 0x5c, 0x07, 0x3e, 0x48, 0x83, 0x4f, 0xbd, 0xf4, 0x24, 0xa1, 0x3d,
  0xae, 0xde, 0x29, 0x3e, 0xea, 0x5e, 0x3c, 0xbd, 0xb9, 0xa7, 0x43, 0x3e,
  0xca, 0xe2, 0xdf, 0xbe, 0x34, 0x0f, 0xc2, 0xbd, 0xc8, 0xcc, 0x20, 0x3d,
  0xf4, 0xaf, 0x91, 0x3e, 0x85, 0x70, 0xc6, 0x3e, 0xf4, 0x36, 0x5b, 0xbf,
  0x60, 0xee, 0x56, 0xbd, 0x0c, 0xf9, 0xa5, 0xbe, 0xb1, 0x14, 0xc0, 0x3e,
  0xca, 0x31, 0x90, 0xb9, 0xa7, 0xcd, 0xb7, 0x3e, 0x5c, 0xd2, 0xa6, 0x3d,
  0x7a, 0x10, 0x61, 0x3e, 0x74, 0xf5, 0x8f, 0x3d, 0xc2, 0x51, 0x73, 0xbe,
  0xa8, 0x52, 0xf7, 0x3e, 0x75, 0xc5, 0xd8, 0x3e, 0xa0, 0x74, 0x0d, 0x3c,
  0x65, 0x93, 0x90, 0x3e, 0xa1, 0x2a, 0xbe, 0x3e, 0x0a, 0xa6, 0xad, 0xbd,
  0xec, 0x16, 0xe9, 0x3d, 0xd4, 0x41, 0x96, 0xbe, 0x2c, 0xee, 0xd2, 0xbe,
  0x4d, 0x14, 0xcb, 0xbe, 0x0e, 0xe5, 0x85, 0xbe, 0xf8, 0xe5, 0x47, 0xbd,
  0x5b, 0xe8, 0x85, 0x3e, 0x7e, 0x81, 0x5b, 0xbe, 0x14, 0xbe, 0xad, 0xbe,
  0x60, 0xc3, 0x9a, 0xbe, 0x2c, 0x51, 0xd6, 0xbe, 0xcc, 0x0d, 0x1a, 0xbe,
  0x38, 0xbb, 0x3b, 0xbd, 0x6a, 0x74, 0x17, 0x3e, 0x44, 0x77, 0x81, 0xbe,
  0xee, 0xdd, 0x96, 0xbe, 0x29, 0xde, 0xf4, 0x3e, 0x48, 0x2b, 0x2c, 0xbd,
  0xe1, 0x8e, 0xbd, 0xbe, 0x35, 0xd2, 0xb1, 0x3e, 0x10, 0x82, 0x08, 0xbd,
  0x54, 0x42, 0xe6, 0x3d, 0x20, 0x65, 0x28, 0xbd, 0xfa, 0x0e, 0x3b, 0x3e,
  0x88, 0x8c, 0x1c, 0xbd, 0xf4, 0x08, 0x78, 0xbd, 0xc5, 0xb8, 0xd5, 0xbd,
  0x83, 0x87, 0xfc, 0x3e, 0xea, 0x52, 0xfa, 0x3e, 0x4d, 0x4c, 0x86, 0x3e,
  0x81, 0x4e, 0xaf, 0xbd, 0x3b, 0x27, 0x09, 0x3e, 0x67, 0x98, 0xb6, 0x3d,
  0x80, 0xc5, 0x26, 0xbb, 0x80, 0xf9, 0x06, 0x3c, 0xc4, 0x91, 0xa9, 0xbe,
  0x8f, 0xb8, 0xc2, 0xbe, 0x2d, 0x46, 0xba, 0x3e, 0xf6, 0xf5, 0x52, 0x3e,
  0xbc, 0x36, 0x07, 0xbe, 0xb0, 0x71, 0x88, 0xbe, 0x81, 0x56, 0x87, 0xbe,
  0x0d, 0xfc, 0x87, 0x3b, 0x4e, 0xb4, 0xd8, 0xbe, 0x56, 0x41, 0xc3, 0xbe,
  0x32, 0x14, 0x3d, 0x3e, 0xa6, 0x75, 0x7e, 0x3d, 0x3c, 0x21, 0x17, 0x3e,
  0xf6, 0xfc, 0xce, 0x3e, 0x8c, 0xbb, 0xe6, 0x3d, 0xad, 0x8f, 0x98, 0x3e,
  0xc8, 0xe7, 0xdc, 0xbe, 0xfa, 0x23, 0x9a, 0x3e, 0xbb, 0xca, 0x4a, 0xbe,
  0xa4, 0xda, 0x09, 0xbe, 0x1c, 0x76, 0xfe, 0xbd, 0xfd, 0x05, 0x63, 0xbe,
  0xa8, 0x56, 0x8f, 0xbe, 0xfd, 0x5a, 0xc1, 0x3d, 0x82, 0x05, 0x8f, 0x3e,
  0xd6, 0x19, 0x16, 0xbe, 0xc1, 0xd7, 0xd3, 0xbe, 0xf4, 0x26, 0x20, 0x3d,
  0x2a, 0x19, 0xf8, 0xbd, 0x47, 0xc8, 0xdb, 0xbe, 0x34, 0x0d, 0xf2, 0x3d,
  0x80, 0xfb, 0x25, 0xbc, 0x6c, 0xb0, 0xba, 0x3d, 0x4a, 0x3f, 0x45, 0x3e,
  0x21, 0xc4, 0xb1, 0x3e, 0xd2, 0xaa, 0x19, 0x3e, 0x50, 0xbf, 0x8f, 0xbe,
  0x78, 0xd1, 0x23, 0xbe, 0x29, 0xba, 0xbe, 0xbe, 0xdc, 0xcc, 0xd8, 0xbd,
  0x8e, 0x56, 0x7a, 0x3e, 0xb0, 0xcc, 0x39, 0xbe, 0x1b, 0xd8, 0x92, 0xbe,
  0x34, 0x4a, 0x27, 0xbe, 0xe9, 0x97, 0xa7, 0x3e, 0x77, 0xab, 0x75, 0x3e,
  0x5c, 0xeb, 0xa8, 0x3d, 0x30, 0x7b, 0xad, 0xbd, 0x50, 0x25, 0x31, 0xbe,
  0x3d, 0xee, 0x7f, 0x3e, 0x78, 0x9a, 0x93, 0xbd, 0x00, 0xcd, 0xcb, 0xba,
  0xa8, 0x4f, 0xcc, 0xbd, 0x24, 0xfa, 0xf4, 0x3d, 0x37, 0xc1, 0x8a, 0x3e,
  0x9d, 0x0f, 0x60, 0x3e, 0xab, 0xa8, 0x3d, 0xbe, 0xac, 0x1b, 0x6e, 0xbe,
  0xd4, 0xf0, 0x89, 0x3d, 0x2f, 0x9d, 0x95, 0xbc, 0xcd, 0x9d, 0x52, 0x3e,
  0x72, 0xf8, 0x7c, 0xbe, 0x2b, 0x23, 0xa8, 0xbe, 0x88, 0x13, 0x31, 0xbe,
  0xed, 0x0d, 0x6c, 0xbe, 0x25, 0x48, 0xca, 0x3e, 0xe3, 0x66, 0x97, 0x3e,
  0xd7, 0x78, 0x4d, 0xbe, 0xed, 0xdb, 0x73, 0xbe, 0xba, 0x30, 0xba, 0xbe,
  0xcb, 0x33, 0x18, 0xbe, 0x4c, 0x35, 0xe3, 0x3e, 0x20, 0xbf, 0x02, 0x3e,
  0x59, 0x37, 0x52, 0x3e, 0x7c, 0xf2, 0x85, 0xbd, 0x99, 0x9a, 0x40, 0x3e,
  0x06, 0x89, 0x6f, 0x3d, 0x86, 0xb3, 0xb6, 0x3e, 0x30, 0x07, 0x74, 0xbd,
  0xf4, 0xf0, 0x49, 0xbe, 0x38, 0x0a, 0x48, 0xbe, 0xd2, 0x96, 0x2a, 0x3e,
  0x78, 0x4e, 0x25, 0xbe, 0x95, 0x6c, 0xac, 0x3e, 0xd4, 0x0f, 0xf4, 0xbd,
  0x10, 0x82, 0x95, 0xbe, 0x59, 0xac, 0x9b, 0x3d, 0x91, 0xfb, 0x86, 0xbe,
  0xfa, 0x01, 0x19, 0xbe, 0xff, 0x63, 0xff, 0xbd, 0x80, 0x86, 0x0d, 0x3d,
  0x3f, 0x72, 0xc8, 0x3c, 0x60, 0x39, 0x5a, 0x3d, 0xb1, 0xbf, 0xd4, 0xbd,
  0xaa, 0x3d, 0x8e, 0xbe, 0x06, 0x8d, 0x16, 0xbe, 0xc4, 0xe8, 0xc5, 0x3d,
  0x2d, 0xcc, 0x91, 0xbe, 0x2a, 0xc6, 0x77, 0xbe, 0x28, 0x80, 0xfa, 0xbd,
  0x69, 0x06, 0x8d, 0x3e, 0x00, 0x87, 0xdb, 0xbb, 0x81, 0x89, 0x1f, 0x3c,
  0xca, 0x2f, 0x9f, 0x3e, 0x17, 0xe1, 0x11, 0xbe, 0x8c, 0x5f, 0x9b, 0x3e,
  0x48, 0x5f, 0xd4, 0xbd, 0x55, 0xa4, 0xb6, 0x3e, 0x79, 0x1d, 0xb3, 0x3e,
  0xe0, 0xf9, 0x79, 0xbf, 0x00, 0xca, 0x3d, 0xbe, 0x2c, 0x48, 0xf9, 0x3d,
  0xa4, 0xb2, 0xae, 0xbd, 0x86, 0x57, 0x68, 0xbf, 0x20, 0x95, 0x2f, 0xbe,
  0xeb, 0xc3, 0xd9, 0x3e, 0x96, 0x01, 0x11, 0x3e, 0xfe, 0x12, 0x07, 0x3e,
  0xd9, 0x2d, 0x8d, 0x3e, 0x35, 0x7b, 0x7d, 0x3e, 0x00, 0xd6, 0xc3, 0x3c,
  0x18, 0xba, 0xd2, 0x3e, 0x5f, 0x48, 0x67, 0xbe, 0xc6, 0xa5, 0x4f, 0x3c,
  0x99, 0xd6, 0x0d, 0x3c, 0xd0, 0x7b, 0xba, 0xbd, 0xa7, 0x88, 0x86, 0x3e,
  0x5b, 0x5a, 0xc3, 0x3e, 0x68, 0x78, 0x01, 0x3d, 0x59, 0x17, 0x85, 0xbe,
  0x3e, 0xbf, 0x4c, 0x3e, 0x62, 0xfc, 0x55, 0xbe, 0xea, 0x93, 0x28, 0xbe,
  0x2a, 0x52, 0x6e, 0xbe, 0x18, 0x59, 0x73, 0xbd, 0x1a, 0x2f, 0xcc, 0xbe,
  0x7c, 0xb4, 0x93, 0xbe, 0x79, 0xae, 0x9d, 0x3e, 0x72, 0x62, 0x7f, 0x3e,
  0x6c, 0x9f, 0xd9, 0x3d, 0xa4, 0xad, 0x9f, 0xbd, 0x49, 0x0e, 0xa1, 0xbf,
  0xae, 0xae, 0x39, 0x3e, 0x69, 0x4f, 0xbb, 0x3e, 0x16, 0x63, 0x0e, 0xbe,
  0x47, 0x8e, 0xaa, 0x3e, 0x70, 0x13, 0x85, 0xbd, 0x30, 0xd7, 0x15, 0xbd,
  0xed, 0xe2, 0xca, 0xbe, 0x6c, 0xb6, 0xe5, 0xbd, 0xe7, 0xec, 0x8e, 0xbe,
  0xbe, 0x21, 0xeb, 0x3e, 0xf4, 0xfd, 0xd8, 0x3c, 0x19, 0x1a, 0xb2, 0xbe,
  0x80, 0x6d, 0x9e, 0x3c, 0x39, 0xd0, 0x80, 0x3e, 0xfb, 0x13, 0xe3, 0xbe,
  0x00, 0x00, 0x0e, 0x00, 0x14, 0x00, 0x04, 0x00, 0x00, 0x00, 0x08, 0x00,
  0x0c, 0x00, 0x10, 0x00, 0x0e, 0x00, 0x00, 0x00, 0x10, 0x00, 0x00, 0x00,
  0x01, 0x00, 0x00, 0x00, 0x14, 0x00, 0x00, 0x00, 0x28, 0x00, 0x00, 0x00,
  0x02, 0x00, 0x00, 0x00, 0x01, 0x00, 0x00, 0x00, 0x01, 0x00, 0x00, 0x00,
  0x0b, 0x00, 0x00, 0x00, 0x64, 0x65, 0x6e, 0x73, 0x65, 0x5f, 0x69, 0x6e,
  0x70, 0x75, 0x74, 0x00, 0x08, 0x00, 0x0c, 0x00, 0x04, 0x00, 0x08, 0x00,
  0x08, 0x00, 0x00, 0x00, 0x10, 0x00, 0x00, 0x00, 0x04, 0x00, 0x00, 0x00,
  0x01, 0x00, 0x00, 0x00, 0x00, 0x00, 0x7f, 0x43, 0x01, 0x00, 0x00, 0x00,
  0x00, 0x00, 0x00, 0x00, 0x03, 0x00, 0x00, 0x00, 0x98, 0x00, 0x00, 0x00,
  0x44, 0x00, 0x00, 0x00, 0x04, 0x00, 0x00, 0x00, 0x88, 0xff, 0xff, 0xff,
  0x00, 0x00, 0x00, 0x08, 0x10, 0x00, 0x00, 0x00, 0x1c, 0x00, 0x00, 0x00,
  0x28, 0x00, 0x00, 0x00, 0x1c, 0x00, 0x00, 0x00, 0x03, 0x00, 0x00, 0x00,
  0x07, 0x00, 0x00, 0x00, 0x08, 0x00, 0x00, 0x00, 0x09, 0x00, 0x00, 0x00,
  0x01, 0x00, 0x00, 0x00, 0x00, 0x00, 0x00, 0x00, 0x00, 0x00, 0x00, 0x00,
  0x04, 0x00, 0x04, 0x00, 0x04, 0x00, 0x00, 0x00, 0xc4, 0xff, 0xff, 0xff,
  0x00, 0x00, 0x00, 0x08, 0x10, 0x00, 0x00, 0x00, 0x1c, 0x00, 0x00, 0x00,
  0x24, 0x00, 0x00, 0x00, 0x1c, 0x00, 0x00, 0x00, 0x03, 0x00, 0x00, 0x00,
  0x04, 0x00, 0x00, 0x00, 0x05, 0x00, 0x00, 0x00, 0x06, 0x00, 0x00, 0x00,
  0x01, 0x00, 0x00, 0x00, 0x07, 0x00, 0x00, 0x00, 0x00, 0x00, 0x00, 0x00,
  0x8e, 0xff, 0xff, 0xff, 0x00, 0x00, 0x00, 0x01, 0x14, 0x00, 0x18, 0x00,
  0x00, 0x00, 0x08, 0x00, 0x0c, 0x00, 0x07, 0x00, 0x10, 0x00, 0x00, 0x00,
  0x00, 0x00, 0x14, 0x00, 0x14, 0x00, 0x00, 0x00, 0x00, 0x00, 0x00, 0x08,
  0x10, 0x00, 0x00, 0x00, 0x1c, 0x00, 0x00, 0x00, 0x24, 0x00, 0x00, 0x00,
  0x1c, 0x00, 0x00, 0x00, 0x03, 0x00, 0x00, 0x00, 0x01, 0x00, 0x00, 0x00,
  0x02, 0x00, 0x00, 0x00, 0x03, 0x00, 0x00, 0x00, 0x01, 0x00, 0x00, 0x00,
  0x04, 0x00, 0x00, 0x00, 0x00, 0x00, 0x00, 0x00, 0xde, 0xff, 0xff, 0xff,
  0x00, 0x00, 0x00, 0x01, 0x01, 0x00, 0x00, 0x00, 0x04, 0x00, 0x00, 0x00,
  0xfa, 0xff, 0xff, 0xff, 0x00, 0x09, 0x06, 0x00, 0x06, 0x00, 0x05, 0x00,
  0x06, 0x00, 0x00, 0x00, 0x00, 0x09, 0x06, 0x00, 0x08, 0x00, 0x07, 0x00,
  0x06, 0x00, 0x00, 0x00, 0x00, 0x00, 0x00, 0x09
};
unsigned int bre_led_model_tflite_len = 2696;
